#ifndef _MODEL_HPP_
#define _MODEL_HPP_
alignas(8) const unsigned char model_tflite[] = {
  0x1c, 0x00, 0x00, 0x00, 0x54, 0x46, 0x4c, 0x33, 0x14, 0x00, 0x20, 0x00,
  0x1c, 0x00, 0x18, 0x00, 0x14, 0x00, 0x10, 0x00, 0x0c, 0x00, 0x00, 0x00,
  0x08, 0x00, 0x04, 0x00, 0x14, 0x00, 0x00, 0x00, 0x1c, 0x00, 0x00, 0x00,
  0x80, 0x00, 0x00, 0x00, 0xd8, 0x00, 0x00, 0x00, 0x70, 0x07, 0x00, 0x00,
  0x80, 0x07, 0x00, 0x00, 0x1c, 0x17, 0x00, 0x00, 0x03, 0x00, 0x00, 0x00,
  0x01, 0x00, 0x00, 0x00, 0x04, 0x00, 0x00, 0x00, 0x56, 0xf6, 0xff, 0xff,
  0x0c, 0x00, 0x00, 0x00, 0x1c, 0x00, 0x00, 0x00, 0x38, 0x00, 0x00, 0x00,
  0x0f, 0x00, 0x00, 0x00, 0x73, 0x65, 0x72, 0x76, 0x69, 0x6e, 0x67, 0x5f,
  0x64, 0x65, 0x66, 0x61, 0x75, 0x6c, 0x74, 0x00, 0x01, 0x00, 0x00, 0x00,
  0x04, 0x00, 0x00, 0x00, 0x9c, 0xff, 0xff, 0xff, 0x16, 0x00, 0x00, 0x00,
  0x04, 0x00, 0x00, 0x00, 0x07, 0x00, 0x00, 0x00, 0x64, 0x65, 0x6e, 0x73,
  0x65, 0x5f, 0x38, 0x00, 0x01, 0x00, 0x00, 0x00, 0x04, 0x00, 0x00, 0x00,
  0x5a, 0xf6, 0xff, 0xff, 0x04, 0x00, 0x00, 0x00, 0x07, 0x00, 0x00, 0x00,
  0x69, 0x6e, 0x70, 0x75, 0x74, 0x5f, 0x37, 0x00, 0x02, 0x00, 0x00, 0x00,
  0x34, 0x00, 0x00, 0x00, 0x04, 0x00, 0x00, 0x00, 0xdc, 0xff, 0xff, 0xff,
  0x19, 0x00, 0x00, 0x00, 0x04, 0x00, 0x00, 0x00, 0x13, 0x00, 0x00, 0x00,
  0x43, 0x4f, 0x4e, 0x56, 0x45, 0x52, 0x53, 0x49, 0x4f, 0x4e, 0x5f, 0x4d,
  0x45, 0x54, 0x41, 0x44, 0x41, 0x54, 0x41, 0x00, 0x08, 0x00, 0x0c, 0x00,
  0x08, 0x00, 0x04, 0x00, 0x08, 0x00, 0x00, 0x00, 0x18, 0x00, 0x00, 0x00,
  0x04, 0x00, 0x00, 0x00, 0x13, 0x00, 0x00, 0x00, 0x6d, 0x69, 0x6e, 0x5f,
  0x72, 0x75, 0x6e, 0x74, 0x69, 0x6d, 0x65, 0x5f, 0x76, 0x65, 0x72, 0x73,
  0x69, 0x6f, 0x6e, 0x00, 0x1a, 0x00, 0x00, 0x00, 0x94, 0x06, 0x00, 0x00,
  0x8c, 0x06, 0x00, 0x00, 0x78, 0x06, 0x00, 0x00, 0x64, 0x06, 0x00, 0x00,
  0x50, 0x06, 0x00, 0x00, 0x48, 0x06, 0x00, 0x00, 0x30, 0x06, 0x00, 0x00,
  0xf8, 0x05, 0x00, 0x00, 0xb0, 0x01, 0x00, 0x00, 0x70, 0x01, 0x00, 0x00,
  0xf4, 0x00, 0x00, 0x00, 0xec, 0x00, 0x00, 0x00, 0xe4, 0x00, 0x00, 0x00,
  0xdc, 0x00, 0x00, 0x00, 0xd4, 0x00, 0x00, 0x00, 0xcc, 0x00, 0x00, 0x00,
  0xc4, 0x00, 0x00, 0x00, 0xbc, 0x00, 0x00, 0x00, 0xb4, 0x00, 0x00, 0x00,
  0xac, 0x00, 0x00, 0x00, 0xa4, 0x00, 0x00, 0x00, 0x9c, 0x00, 0x00, 0x00,
  0x94, 0x00, 0x00, 0x00, 0x8c, 0x00, 0x00, 0x00, 0x6c, 0x00, 0x00, 0x00,
  0x04, 0x00, 0x00, 0x00, 0x36, 0xf7, 0xff, 0xff, 0x04, 0x00, 0x00, 0x00,
  0x58, 0x00, 0x00, 0x00, 0x0c, 0x00, 0x00, 0x00, 0x08, 0x00, 0x0e, 0x00,
  0x08, 0x00, 0x04, 0x00, 0x08, 0x00, 0x00, 0x00, 0x10, 0x00, 0x00, 0x00,
  0x28, 0x00, 0x00, 0x00, 0x00, 0x00, 0x06, 0x00, 0x08, 0x00, 0x04, 0x00,
  0x06, 0x00, 0x00, 0x00, 0x04, 0x00, 0x00, 0x00, 0x01, 0x00, 0x00, 0x00,
  0xeb, 0x03, 0x00, 0x00, 0x00, 0x00, 0x0a, 0x00, 0x10, 0x00, 0x0c, 0x00,
  0x08, 0x00, 0x04, 0x00, 0x0a, 0x00, 0x00, 0x00, 0x02, 0x00, 0x00, 0x00,
  0x02, 0x00, 0x00, 0x00, 0x04, 0x00, 0x00, 0x00, 0x06, 0x00, 0x00, 0x00,
  0x32, 0x2e, 0x31, 0x35, 0x2e, 0x31, 0x00, 0x00, 0x9a, 0xf7, 0xff, 0xff,
  0x04, 0x00, 0x00, 0x00, 0x10, 0x00, 0x00, 0x00, 0x31, 0x2e, 0x31, 0x34,
  0x2e, 0x30, 0x00, 0x00, 0x00, 0x00, 0x00, 0x00, 0x00, 0x00, 0x00, 0x00,
  0xd4, 0xea, 0xff, 0xff, 0xd8, 0xea, 0xff, 0xff, 0xdc, 0xea, 0xff, 0xff,
  0xe0, 0xea, 0xff, 0xff, 0xe4, 0xea, 0xff, 0xff, 0xe8, 0xea, 0xff, 0xff,
  0xec, 0xea, 0xff, 0xff, 0xf0, 0xea, 0xff, 0xff, 0xf4, 0xea, 0xff, 0xff,
  0xf8, 0xea, 0xff, 0xff, 0xfc, 0xea, 0xff, 0xff, 0x00, 0xeb, 0xff, 0xff,
  0x04, 0xeb, 0xff, 0xff, 0xea, 0xf7, 0xff, 0xff, 0x04, 0x00, 0x00, 0x00,
  0x6c, 0x00, 0x00, 0x00, 0x15, 0x56, 0x53, 0xcc, 0xf2, 0x74, 0xa0, 0x9f,
  0x81, 0xa3, 0xd6, 0xf1, 0xea, 0x84, 0x86, 0x7e, 0x7f, 0x44, 0x0b, 0x64,
  0x46, 0x17, 0x42, 0x1f, 0x65, 0x7f, 0x97, 0x1d, 0x58, 0x7f, 0xe7, 0xbb,
  0xc9, 0xbe, 0xdf, 0xa8, 0x95, 0x9d, 0xc1, 0x5c, 0x6f, 0x7f, 0x7d, 0x69,
  0x4e, 0x47, 0x57, 0x53, 0x65, 0x25, 0x1d, 0xa4, 0x26, 0x7f, 0x3d, 0x09,
  0x7f, 0x5e, 0x47, 0x30, 0x79, 0x12, 0x55, 0xd8, 0x81, 0x9f, 0x8c, 0x12,
  0x46, 0x1b, 0x5a, 0x44, 0x6d, 0x23, 0x81, 0x5a, 0xf0, 0xa1, 0x06, 0x83,
  0xc6, 0x81, 0x12, 0x62, 0xa1, 0x1e, 0x2c, 0x24, 0x5d, 0x43, 0xcd, 0x81,
  0xa7, 0x58, 0x15, 0xa5, 0x46, 0x51, 0x33, 0x93, 0xd6, 0x7f, 0xba, 0xdc,
  0x5b, 0x95, 0x05, 0x73, 0x62, 0xf8, 0xff, 0xff, 0x04, 0x00, 0x00, 0x00,
  0x30, 0x00, 0x00, 0x00, 0x24, 0x01, 0x00, 0x00, 0x30, 0xf5, 0xff, 0xff,
  0x2c, 0xf4, 0xff, 0xff, 0xd8, 0x0e, 0x00, 0x00, 0xbf, 0xff, 0xff, 0xff,
  0x51, 0x00, 0x00, 0x00, 0x10, 0x02, 0x00, 0x00, 0x5c, 0xfe, 0xff, 0xff,
  0xb0, 0x06, 0x00, 0x00, 0x5c, 0xfb, 0xff, 0xff, 0xaf, 0xfc, 0xff, 0xff,
  0x19, 0xf8, 0xff, 0xff, 0x9e, 0xf8, 0xff, 0xff, 0x04, 0x00, 0x00, 0x00,
  0x38, 0x04, 0x00, 0x00, 0xd6, 0xc2, 0xfa, 0xd4, 0xfa, 0xdf, 0xee, 0xec,
  0xdf, 0xea, 0xf4, 0xfe, 0xec, 0xe9, 0x0e, 0xdd, 0x16, 0x1b, 0x0c, 0xfa,
  0xb5, 0xf9, 0x00, 0x18, 0x0d, 0xee, 0x19, 0x0c, 0xf7, 0x0e, 0x12, 0xf4,
  0xa2, 0xdc, 0x2b, 0x05, 0xb4, 0xaa, 0x25, 0xb4, 0x11, 0x1b, 0x1e, 0x10,
  0x13, 0x05, 0xe1, 0x16, 0xdb, 0x81, 0x0d, 0x04, 0xc7, 0xd5, 0x0e, 0xad,
  0x3f, 0xd3, 0x94, 0xee, 0x45, 0xb0, 0x0c, 0xf6, 0xd6, 0xf3, 0xe0, 0x08,
  0xf7, 0x30, 0xf5, 0x46, 0x01, 0xea, 0x26, 0xe1, 0x0e, 0x1a, 0x0e, 0xb3,
  0xf6, 0x26, 0xe5, 0x34, 0xea, 0x14, 0xeb, 0x20, 0x13, 0x01, 0xfa, 0x12,
  0xe3, 0xf8, 0x46, 0xeb, 0xcb, 0xd9, 0x17, 0xff, 0x16, 0x2b, 0x2a, 0x32,
  0x00, 0x1c, 0xb0, 0x21, 0x0c, 0xf2, 0xdf, 0x07, 0x00, 0xdf, 0x00, 0x04,
  0x0b, 0xe5, 0x0f, 0xd6, 0xdf, 0xd9, 0xf0, 0xb9, 0xd8, 0x0e, 0x15, 0x05,
  0xe4, 0x22, 0xf7, 0x1b, 0xb4, 0xf4, 0x03, 0xe2, 0xdc, 0xea, 0xe6, 0xff,
  0x2b, 0x11, 0xee, 0xfb, 0xd3, 0xea, 0xe9, 0x27, 0xde, 0xff, 0xd0, 0xe0,
  0x18, 0xd6, 0x0c, 0xcf, 0xd0, 0xa0, 0xff, 0xbf, 0x1e, 0x14, 0x21, 0xf0,
  0x12, 0x41, 0xb8, 0x3c, 0xb0, 0xba, 0xf4, 0xde, 0xfc, 0xbf, 0xf3, 0xca,
  0x0f, 0xe1, 0xbc, 0xbc, 0x0b, 0xeb, 0x10, 0x37, 0x10, 0xe6, 0x14, 0x1e,
  0x3b, 0x05, 0xde, 0xef, 0x3a, 0xac, 0x2f, 0x3f, 0x0a, 0x0c, 0x37, 0xe3,
  0x27, 0x25, 0xe1, 0x3a, 0x41, 0x20, 0xf7, 0x3b, 0xdf, 0xe3, 0xd4, 0xf0,
  0xc4, 0xfc, 0x1b, 0xd4, 0x18, 0x2b, 0xfb, 0x0a, 0xf3, 0x17, 0x02, 0xf4,
  0x0b, 0xf4, 0xf1, 0x16, 0x42, 0xfc, 0xf4, 0x31, 0x00, 0xf9, 0x14, 0xe3,
  0xef, 0xfc, 0xfe, 0x09, 0x08, 0xf8, 0x0e, 0xef, 0xe2, 0x0d, 0xf2, 0xa8,
  0xcf, 0xf3, 0xfa, 0xf0, 0xc6, 0x42, 0xf3, 0x0a, 0x04, 0xd6, 0x06, 0x0f,
  0xe7, 0xff, 0x2a, 0xc1, 0xe1, 0x09, 0x10, 0xec, 0x16, 0xea, 0x04, 0x0c,
  0xca, 0xef, 0xd7, 0x0d, 0xbb, 0xd0, 0xf0, 0xc8, 0x04, 0x04, 0xf9, 0x15,
  0x2b, 0x00, 0xbf, 0x11, 0xfd, 0x0b, 0x19, 0x0f, 0x1e, 0x0b, 0x21, 0x2e,
  0x2f, 0x35, 0xca, 0x08, 0xea, 0xec, 0xf6, 0x13, 0x0c, 0xf3, 0x00, 0xeb,
  0x2c, 0xf8, 0xbc, 0xfd, 0x6e, 0x5f, 0xf7, 0x64, 0x22, 0x28, 0x16, 0x12,
  0xd2, 0xc8, 0x23, 0xad, 0x3d, 0xff, 0xf5, 0x18, 0x0f, 0xe8, 0x06, 0x0f,
  0xdc, 0xf0, 0x12, 0xfe, 0x28, 0x18, 0xe1, 0x24, 0x1b, 0x14, 0x0c, 0xdf,
  0xcb, 0xef, 0x08, 0xf6, 0xcf, 0xea, 0xfe, 0xdc, 0x0e, 0x11, 0xfa, 0xdb,
  0x15, 0xf3, 0xf7, 0xed, 0x2b, 0x21, 0xe4, 0x11, 0xe2, 0xd8, 0xc0, 0x05,
  0x01, 0xe7, 0x01, 0xca, 0x33, 0x19, 0xeb, 0x1e, 0xe7, 0xff, 0x08, 0x2d,
  0xa6, 0x07, 0xd7, 0x01, 0xef, 0xfb, 0xf1, 0xed, 0x15, 0xdf, 0x00, 0xf4,
  0x1c, 0xf7, 0x1c, 0xe0, 0xf9, 0x2f, 0x02, 0xe6, 0x15, 0x0c, 0xfa, 0x34,
  0xdd, 0xd3, 0x5e, 0x00, 0xda, 0x1e, 0xfc, 0xf7, 0x18, 0x08, 0xf2, 0x31,
  0xce, 0x07, 0x12, 0xcf, 0xa1, 0xde, 0x22, 0xbc, 0x1f, 0x05, 0x1f, 0x00,
  0x05, 0x2c, 0xf0, 0x31, 0xf4, 0xdf, 0x0c, 0xff, 0xf4, 0xf0, 0xf7, 0xdb,
  0x23, 0x02, 0xef, 0x1f, 0x8c, 0xbf, 0xd7, 0xaa, 0xf2, 0xf1, 0xcf, 0xe6,
  0x78, 0x15, 0xf8, 0x0e, 0xb5, 0xee, 0x28, 0xab, 0xed, 0xe8, 0x05, 0x23,
  0x55, 0x20, 0xde, 0x37, 0xf6, 0xda, 0x0f, 0x00, 0x08, 0x33, 0x2a, 0x2a,
  0xe9, 0x1c, 0xfc, 0x1f, 0xdc, 0x1c, 0x0f, 0xb8, 0x1b, 0x12, 0x15, 0x0a,
  0x35, 0x05, 0x26, 0x21, 0xc9, 0x0c, 0xed, 0xef, 0x1d, 0x1c, 0xf8, 0x03,
  0x0e, 0x25, 0xf1, 0x13, 0xf7, 0xfa, 0x16, 0xf4, 0xd5, 0xf4, 0xf5, 0xae,
  0x2d, 0xf5, 0xb1, 0xc8, 0x2b, 0x8c, 0x0e, 0x02, 0xc7, 0x09, 0xf3, 0xde,
  0xe3, 0x10, 0xac, 0x10, 0x39, 0xe5, 0x01, 0x1a, 0xd7, 0xf3, 0xec, 0xa8,
  0x0f, 0xe9, 0xff, 0xe0, 0xd9, 0xe2, 0x02, 0xf8, 0xee, 0x00, 0xe0, 0xd5,
  0xd8, 0x10, 0xed, 0x05, 0xd5, 0xec, 0xff, 0xe9, 0x02, 0xef, 0xf0, 0x0c,
  0xd5, 0x0a, 0x01, 0x0a, 0x57, 0x01, 0xe4, 0x37, 0x30, 0xf0, 0x06, 0x3e,
  0x04, 0x0a, 0xd8, 0xa6, 0x28, 0x07, 0xfb, 0x19, 0xdf, 0x03, 0x0b, 0xda,
  0xb1, 0xe8, 0xe5, 0x0a, 0x21, 0x3f, 0x06, 0x21, 0xfe, 0x07, 0xea, 0xd2,
  0xe5, 0xdf, 0x5a, 0xe4, 0x4a, 0x43, 0xff, 0x3f, 0xeb, 0x05, 0xe6, 0xbb,
  0x9e, 0xac, 0x3b, 0xbb, 0x23, 0x36, 0xf9, 0xf7, 0x12, 0xeb, 0xfe, 0x3d,
  0xa6, 0xcc, 0x2d, 0xef, 0x04, 0x24, 0xf7, 0xec, 0x18, 0x06, 0xf2, 0x0f,
  0xe9, 0x03, 0x40, 0xeb, 0xde, 0xd6, 0xfa, 0xcc, 0x19, 0xfb, 0xf8, 0x1a,
  0x03, 0x19, 0xe4, 0x0d, 0xc1, 0xdf, 0xf2, 0xe1, 0xf3, 0xeb, 0xf4, 0xcb,
  0x2d, 0x1f, 0xca, 0xf0, 0x83, 0xa5, 0x26, 0xe2, 0x04, 0xe2, 0xee, 0xec,
  0x4e, 0x13, 0xa1, 0x0a, 0x0b, 0xdb, 0x02, 0x21, 0xe5, 0xd9, 0xcd, 0x10,
  0x55, 0x07, 0xfe, 0xee, 0xbc, 0xba, 0xf5, 0xa5, 0x01, 0x0e, 0x00, 0xcf,
  0x0a, 0x16, 0xc8, 0xfe, 0xaa, 0x05, 0x0b, 0xbd, 0xe7, 0xda, 0xff, 0x39,
  0x2c, 0xf2, 0xef, 0x16, 0xf4, 0x60, 0xe4, 0x19, 0x0d, 0x29, 0x01, 0x46,
  0xba, 0xd7, 0x36, 0xd5, 0xf5, 0xdf, 0x07, 0x0a, 0xf9, 0xf9, 0x15, 0x92,
  0xc9, 0x07, 0xba, 0x32, 0x1f, 0x29, 0x1a, 0x17, 0xfe, 0x06, 0x27, 0xd4,
  0xe1, 0x17, 0x07, 0xff, 0xe6, 0x23, 0x18, 0x26, 0x18, 0x0d, 0x33, 0x23,
  0x0c, 0x37, 0xe6, 0xfa, 0x2e, 0x4a, 0xee, 0x4d, 0x17, 0x01, 0x01, 0x23,
  0xe5, 0xfd, 0x38, 0x15, 0xde, 0x19, 0x09, 0xea, 0x0f, 0x00, 0xe6, 0x0c,
  0x89, 0x0a, 0x05, 0xd4, 0xb6, 0x10, 0xe5, 0xdd, 0xef, 0xe0, 0x15, 0x1d,
  0xcc, 0x06, 0x17, 0xd5, 0x03, 0x50, 0xf6, 0x2e, 0x16, 0xe4, 0x1a, 0x02,
  0x23, 0xf7, 0x2b, 0xfd, 0xee, 0xab, 0x0c, 0x3f, 0x18, 0x12, 0xfb, 0xf9,
  0xf3, 0x13, 0xa0, 0x04, 0xec, 0xee, 0x10, 0x07, 0x24, 0x20, 0xfd, 0xf8,
  0x33, 0x28, 0xe8, 0x1f, 0xa7, 0xd5, 0x07, 0xd5, 0xfe, 0x00, 0xd8, 0x27,
  0x3e, 0xfc, 0xd0, 0xee, 0x96, 0x96, 0xf9, 0xb6, 0x01, 0x05, 0x07, 0x2f,
  0x33, 0x0a, 0xad, 0x35, 0xd9, 0xb7, 0xef, 0xf1, 0xd8, 0xfe, 0xe5, 0xde,
  0x22, 0xdc, 0xcb, 0xb7, 0xaf, 0xcc, 0xf4, 0xb5, 0xff, 0x2e, 0xf4, 0x29,
  0xbf, 0x19, 0xe5, 0x02, 0xfd, 0x1c, 0x06, 0x0a, 0xf3, 0x01, 0x1b, 0x00,
  0xe8, 0xf8, 0xfb, 0x08, 0x24, 0x11, 0x1c, 0xf7, 0x06, 0x0d, 0x01, 0x1d,
  0x01, 0xfc, 0x14, 0x12, 0x10, 0x0d, 0xe5, 0x06, 0xf4, 0x0a, 0xda, 0xf5,
  0xa2, 0xeb, 0xf9, 0xf4, 0x07, 0x0e, 0xe5, 0xe8, 0xe8, 0x07, 0x00, 0xfb,
  0xd0, 0xee, 0x2a, 0x09, 0x1c, 0x02, 0x11, 0x17, 0x14, 0xe9, 0x11, 0x40,
  0x0d, 0x0f, 0xe8, 0xee, 0xdb, 0xa7, 0x0e, 0xf7, 0x0a, 0xe6, 0xfa, 0x1f,
  0xf2, 0x13, 0xa4, 0x11, 0x2a, 0x14, 0x0a, 0x04, 0xf1, 0x01, 0xd9, 0xdf,
  0x0f, 0xf7, 0x21, 0x09, 0xd0, 0x27, 0xf2, 0xcc, 0xf5, 0xd6, 0xf1, 0xd5,
  0xf6, 0x08, 0x43, 0x09, 0x8d, 0xc7, 0x0f, 0xd2, 0xfe, 0xd0, 0xde, 0x0e,
  0xec, 0xf5, 0xdf, 0xeb, 0x21, 0x0e, 0x1b, 0x28, 0x26, 0xfc, 0x15, 0x09,
  0x9e, 0x07, 0x1d, 0xd8, 0x34, 0x0b, 0xf5, 0x0b, 0x1f, 0xfd, 0x05, 0xf3,
  0xac, 0xc1, 0x1d, 0xbd, 0x29, 0xf3, 0x1d, 0xeb, 0xff, 0x19, 0x09, 0x01,
  0x08, 0x1e, 0x0a, 0x0e, 0x23, 0x2d, 0x19, 0x11, 0x1f, 0x16, 0x01, 0x20,
  0x17, 0xec, 0x1a, 0xff, 0xd2, 0xbe, 0xf9, 0xcd, 0x23, 0x34, 0x0e, 0x15,
  0x34, 0x00, 0xec, 0x17, 0xf7, 0xfd, 0xea, 0x11, 0xe7, 0xf8, 0xf8, 0xb7,
  0x97, 0xe9, 0xef, 0xe7, 0xaf, 0xb5, 0xe3, 0x04, 0xe1, 0x0d, 0xf3, 0xef,
  0xed, 0xfb, 0xa7, 0x07, 0xce, 0xb5, 0xf5, 0xaf, 0xed, 0xfe, 0x0b, 0xd0,
  0xeb, 0xe9, 0xe2, 0x01, 0xe2, 0xfc, 0xff, 0xff, 0x04, 0x00, 0x00, 0x00,
  0x28, 0x00, 0x00, 0x00, 0x68, 0xfe, 0xff, 0xff, 0xbd, 0x08, 0x00, 0x00,
  0x3d, 0xff, 0xff, 0xff, 0x72, 0xfc, 0xff, 0xff, 0x89, 0xfe, 0xff, 0xff,
  0xd6, 0x00, 0x00, 0x00, 0x8b, 0xff, 0xff, 0xff, 0x86, 0x03, 0x00, 0x00,
  0x0e, 0xfa, 0xff, 0xff, 0xa7, 0x01, 0x00, 0x00, 0x16, 0xfd, 0xff, 0xff,
  0x04, 0x00, 0x00, 0x00, 0x08, 0x00, 0x00, 0x00, 0xff, 0xff, 0xff, 0xff,
  0x6c, 0x00, 0x00, 0x00, 0x48, 0xf0, 0xff, 0xff, 0x2e, 0xfd, 0xff, 0xff,
  0x04, 0x00, 0x00, 0x00, 0x04, 0x00, 0x00, 0x00, 0x1c, 0x00, 0x00, 0x00,
  0x3e, 0xfd, 0xff, 0xff, 0x04, 0x00, 0x00, 0x00, 0x04, 0x00, 0x00, 0x00,
  0x01, 0x00, 0x00, 0x00, 0x4e, 0xfd, 0xff, 0xff, 0x04, 0x00, 0x00, 0x00,
  0x04, 0x00, 0x00, 0x00, 0x00, 0x00, 0x00, 0x00, 0x7c, 0xf0, 0xff, 0xff,
  0x80, 0xf0, 0xff, 0xff, 0x0f, 0x00, 0x00, 0x00, 0x4d, 0x4c, 0x49, 0x52,
  0x20, 0x43, 0x6f, 0x6e, 0x76, 0x65, 0x72, 0x74, 0x65, 0x64, 0x2e, 0x00,
  0x01, 0x00, 0x00, 0x00, 0x14, 0x00, 0x00, 0x00, 0x00, 0x00, 0x0e, 0x00,
  0x18, 0x00, 0x14, 0x00, 0x10, 0x00, 0x0c, 0x00, 0x08, 0x00, 0x04, 0x00,
  0x0e, 0x00, 0x00, 0x00, 0x14, 0x00, 0x00, 0x00, 0x1c, 0x00, 0x00, 0x00,
  0x48, 0x03, 0x00, 0x00, 0x4c, 0x03, 0x00, 0x00, 0x50, 0x03, 0x00, 0x00,
  0x04, 0x00, 0x00, 0x00, 0x6d, 0x61, 0x69, 0x6e, 0x00, 0x00, 0x00, 0x00,
  0x0d, 0x00, 0x00, 0x00, 0x10, 0x03, 0x00, 0x00, 0xc8, 0x02, 0x00, 0x00,
  0x68, 0x02, 0x00, 0x00, 0x20, 0x02, 0x00, 0x00, 0xf8, 0x01, 0x00, 0x00,
  0x98, 0x01, 0x00, 0x00, 0x44, 0x01, 0x00, 0x00, 0x00, 0x01, 0x00, 0x00,
  0xbc, 0x00, 0x00, 0x00, 0x94, 0x00, 0x00, 0x00, 0x5c, 0x00, 0x00, 0x00,
  0x28, 0x00, 0x00, 0x00, 0x04, 0x00, 0x00, 0x00, 0x36, 0xfe, 0xff, 0xff,
  0x0c, 0x00, 0x00, 0x00, 0x10, 0x00, 0x00, 0x00, 0x09, 0x00, 0x00, 0x00,
  0x01, 0x00, 0x00, 0x00, 0x16, 0x00, 0x00, 0x00, 0x01, 0x00, 0x00, 0x00,
  0x15, 0x00, 0x00, 0x00, 0x96, 0xfd, 0xff, 0xff, 0x14, 0x00, 0x00, 0x00,
  0x00, 0x00, 0x00, 0x09, 0x14, 0x00, 0x00, 0x00, 0x18, 0x00, 0x00, 0x00,
  0x08, 0x00, 0x00, 0x00, 0x26, 0xfe, 0xff, 0xff, 0x00, 0x00, 0x80, 0x3f,
  0x01, 0x00, 0x00, 0x00, 0x15, 0x00, 0x00, 0x00, 0x01, 0x00, 0x00, 0x00,
  0x14, 0x00, 0x00, 0x00, 0xc6, 0xfd, 0xff, 0xff, 0x14, 0x00, 0x00, 0x00,
  0x00, 0x00, 0x00, 0x08, 0x10, 0x00, 0x00, 0x00, 0x14, 0x00, 0x00, 0x00,
  0x07, 0x00, 0x00, 0x00, 0x74, 0xf1, 0xff, 0xff, 0x01, 0x00, 0x00, 0x00,
  0x14, 0x00, 0x00, 0x00, 0x03, 0x00, 0x00, 0x00, 0x13, 0x00, 0x00, 0x00,
  0x07, 0x00, 0x00, 0x00, 0x06, 0x00, 0x00, 0x00, 0xba, 0xfe, 0xff, 0xff,
  0x0c, 0x00, 0x00, 0x00, 0x10, 0x00, 0x00, 0x00, 0x04, 0x00, 0x00, 0x00,
  0x01, 0x00, 0x00, 0x00, 0x13, 0x00, 0x00, 0x00, 0x02, 0x00, 0x00, 0x00,
  0x12, 0x00, 0x00, 0x00, 0x05, 0x00, 0x00, 0x00, 0x1e, 0xfe, 0xff, 0xff,
  0x14, 0x00, 0x00, 0x00, 0x00, 0x00, 0x00, 0x05, 0x24, 0x00, 0x00, 0x00,
  0x28, 0x00, 0x00, 0x00, 0x06, 0x00, 0x00, 0x00, 0x7e, 0xff, 0xff, 0xff,
  0x02, 0x00, 0x00, 0x00, 0x02, 0x00, 0x00, 0x00, 0x02, 0x00, 0x00, 0x00,
  0x02, 0x00, 0x00, 0x00, 0x00, 0x00, 0x00, 0x01, 0x01, 0x00, 0x00, 0x00,
  0x12, 0x00, 0x00, 0x00, 0x01, 0x00, 0x00, 0x00, 0x11, 0x00, 0x00, 0x00,
  0x5e, 0xfe, 0xff, 0xff, 0x14, 0x00, 0x00, 0x00, 0x00, 0x00, 0x00, 0x05,
  0x24, 0x00, 0x00, 0x00, 0x28, 0x00, 0x00, 0x00, 0x06, 0x00, 0x00, 0x00,
  0xbe, 0xff, 0xff, 0xff, 0x02, 0x00, 0x00, 0x00, 0x02, 0x00, 0x00, 0x00,
  0x02, 0x00, 0x00, 0x00, 0x02, 0x00, 0x00, 0x00, 0x00, 0x00, 0x00, 0x01,
  0x01, 0x00, 0x00, 0x00, 0x11, 0x00, 0x00, 0x00, 0x01, 0x00, 0x00, 0x00,
  0x10, 0x00, 0x00, 0x00, 0x9e, 0xfe, 0xff, 0xff, 0x24, 0x00, 0x00, 0x00,
  0x00, 0x00, 0x00, 0x05, 0x34, 0x00, 0x00, 0x00, 0x38, 0x00, 0x00, 0x00,
  0x06, 0x00, 0x00, 0x00, 0x00, 0x00, 0x0e, 0x00, 0x18, 0x00, 0x17, 0x00,
  0x10, 0x00, 0x0c, 0x00, 0x08, 0x00, 0x04, 0x00, 0x0e, 0x00, 0x00, 0x00,
  0x02, 0x00, 0x00, 0x00, 0x02, 0x00, 0x00, 0x00, 0x02, 0x00, 0x00, 0x00,
  0x02, 0x00, 0x00, 0x00, 0x00, 0x00, 0x00, 0x01, 0x01, 0x00, 0x00, 0x00,
  0x10, 0x00, 0x00, 0x00, 0x01, 0x00, 0x00, 0x00, 0x0f, 0x00, 0x00, 0x00,
  0xee, 0xfe, 0xff, 0xff, 0x20, 0x00, 0x00, 0x00, 0x00, 0x00, 0x00, 0x01,
  0x2c, 0x00, 0x00, 0x00, 0x30, 0x00, 0x00, 0x00, 0x05, 0x00, 0x00, 0x00,
  0x0c, 0x00, 0x14, 0x00, 0x13, 0x00, 0x0c, 0x00, 0x08, 0x00, 0x07, 0x00,
  0x0c, 0x00, 0x00, 0x00, 0x00, 0x00, 0x00, 0x03, 0x01, 0x00, 0x00, 0x00,
  0x01, 0x00, 0x00, 0x00, 0x00, 0x00, 0x00, 0x01, 0x01, 0x00, 0x00, 0x00,
  0x0f, 0x00, 0x00, 0x00, 0x03, 0x00, 0x00, 0x00, 0x0e, 0x00, 0x00, 0x00,
  0x09, 0x00, 0x00, 0x00, 0x08, 0x00, 0x00, 0x00, 0x00, 0x00, 0x0a, 0x00,
  0x10, 0x00, 0x0c, 0x00, 0x08, 0x00, 0x04, 0x00, 0x0a, 0x00, 0x00, 0x00,
  0x0c, 0x00, 0x00, 0x00, 0x10, 0x00, 0x00, 0x00, 0x04, 0x00, 0x00, 0x00,
  0x01, 0x00, 0x00, 0x00, 0x0e, 0x00, 0x00, 0x00, 0x02, 0x00, 0x00, 0x00,
  0x0a, 0x00, 0x00, 0x00, 0x0d, 0x00, 0x00, 0x00, 0x6e, 0xff, 0xff, 0xff,
  0x1c, 0x00, 0x00, 0x00, 0x00, 0x00, 0x00, 0x3b, 0x1c, 0x00, 0x00, 0x00,
  0x20, 0x00, 0x00, 0x00, 0x03, 0x00, 0x00, 0x00, 0x00, 0x00, 0x06, 0x00,
  0x08, 0x00, 0x04, 0x00, 0x06, 0x00, 0x00, 0x00, 0x04, 0x00, 0x00, 0x00,
  0x01, 0x00, 0x00, 0x00, 0x0d, 0x00, 0x00, 0x00, 0x04, 0x00, 0x00, 0x00,
  0x0c, 0x00, 0x00, 0x00, 0x03, 0x00, 0x00, 0x00, 0x03, 0x00, 0x00, 0x00,
  0x04, 0x00, 0x00, 0x00, 0xb2, 0xff, 0xff, 0xff, 0x24, 0x00, 0x00, 0x00,
  0x00, 0x00, 0x00, 0x20, 0x24, 0x00, 0x00, 0x00, 0x28, 0x00, 0x00, 0x00,
  0x02, 0x00, 0x00, 0x00, 0x00, 0x00, 0x0e, 0x00, 0x08, 0x00, 0x00, 0x00,
  0x00, 0x00, 0x00, 0x00, 0x00, 0x00, 0x04, 0x00, 0x0e, 0x00, 0x00, 0x00,
  0x01, 0x00, 0x00, 0x00, 0x01, 0x00, 0x00, 0x00, 0x0c, 0x00, 0x00, 0x00,
  0x04, 0x00, 0x00, 0x00, 0x0b, 0x00, 0x00, 0x00, 0x01, 0x00, 0x00, 0x00,
  0x02, 0x00, 0x00, 0x00, 0x02, 0x00, 0x00, 0x00, 0x00, 0x00, 0x0e, 0x00,
  0x1a, 0x00, 0x14, 0x00, 0x10, 0x00, 0x0c, 0x00, 0x0b, 0x00, 0x04, 0x00,
  0x0e, 0x00, 0x00, 0x00, 0x1c, 0x00, 0x00, 0x00, 0x00, 0x00, 0x00, 0x37,
  0x1c, 0x00, 0x00, 0x00, 0x20, 0x00, 0x00, 0x00, 0x01, 0x00, 0x00, 0x00,
  0x00, 0x00, 0x06, 0x00, 0x08, 0x00, 0x07, 0x00, 0x06, 0x00, 0x00, 0x00,
  0x00, 0x00, 0x00, 0x02, 0x01, 0x00, 0x00, 0x00, 0x0b, 0x00, 0x00, 0x00,
  0x01, 0x00, 0x00, 0x00, 0x0a, 0x00, 0x00, 0x00, 0x00, 0x00, 0x0a, 0x00,
  0x0c, 0x00, 0x00, 0x00, 0x08, 0x00, 0x04, 0x00, 0x0a, 0x00, 0x00, 0x00,
  0x08, 0x00, 0x00, 0x00, 0x0c, 0x00, 0x00, 0x00, 0x01, 0x00, 0x00, 0x00,
  0x0a, 0x00, 0x00, 0x00, 0x01, 0x00, 0x00, 0x00, 0x00, 0x00, 0x00, 0x00,
  0x01, 0x00, 0x00, 0x00, 0x16, 0x00, 0x00, 0x00, 0x01, 0x00, 0x00, 0x00,
  0x00, 0x00, 0x00, 0x00, 0x17, 0x00, 0x00, 0x00, 0xbc, 0x0b, 0x00, 0x00,
  0x48, 0x0b, 0x00, 0x00, 0xd0, 0x0a, 0x00, 0x00, 0x7c, 0x0a, 0x00, 0x00,
  0x28, 0x0a, 0x00, 0x00, 0xd8, 0x09, 0x00, 0x00, 0x50, 0x09, 0x00, 0x00,
  0xe0, 0x08, 0x00, 0x00, 0xdc, 0x07, 0x00, 0x00, 0xe0, 0x06, 0x00, 0x00,
  0x68, 0x06, 0x00, 0x00, 0x00, 0x06, 0x00, 0x00, 0xac, 0x05, 0x00, 0x00,
  0x54, 0x05, 0x00, 0x00, 0xc4, 0x04, 0x00, 0x00, 0xd0, 0x03, 0x00, 0x00,
  0x34, 0x03, 0x00, 0x00, 0x98, 0x02, 0x00, 0x00, 0xfc, 0x01, 0x00, 0x00,
  0x78, 0x01, 0x00, 0x00, 0xdc, 0x00, 0x00, 0x00, 0x60, 0x00, 0x00, 0x00,
  0x04, 0x00, 0x00, 0x00, 0xb6, 0xf4, 0xff, 0xff, 0x00, 0x00, 0x00, 0x01,
  0x14, 0x00, 0x00, 0x00, 0x1c, 0x00, 0x00, 0x00, 0x1c, 0x00, 0x00, 0x00,
  0x17, 0x00, 0x00, 0x00, 0x34, 0x00, 0x00, 0x00, 0x02, 0x00, 0x00, 0x00,
  0xff, 0xff, 0xff, 0xff, 0x0a, 0x00, 0x00, 0x00, 0x9c, 0xf4, 0xff, 0xff,
  0x19, 0x00, 0x00, 0x00, 0x53, 0x74, 0x61, 0x74, 0x65, 0x66, 0x75, 0x6c,
  0x50, 0x61, 0x72, 0x74, 0x69, 0x74, 0x69, 0x6f, 0x6e, 0x65, 0x64, 0x43,
  0x61, 0x6c, 0x6c, 0x3a, 0x30, 0x00, 0x00, 0x00, 0x02, 0x00, 0x00, 0x00,
  0x01, 0x00, 0x00, 0x00, 0x0a, 0x00, 0x00, 0x00, 0x3a, 0xfa, 0xff, 0xff,
  0x00, 0x00, 0x00, 0x01, 0x18, 0x00, 0x00, 0x00, 0x20, 0x00, 0x00, 0x00,
  0x3c, 0x00, 0x00, 0x00, 0x16, 0x00, 0x00, 0x00, 0x00, 0x00, 0x00, 0x09,
  0x50, 0x00, 0x00, 0x00, 0x02, 0x00, 0x00, 0x00, 0xff, 0xff, 0xff, 0xff,
  0x0a, 0x00, 0x00, 0x00, 0x5c, 0xf7, 0xff, 0xff, 0x08, 0x00, 0x00, 0x00,
  0x10, 0x00, 0x00, 0x00, 0x01, 0x00, 0x00, 0x00, 0x80, 0xff, 0xff, 0xff,
  0xff, 0xff, 0xff, 0xff, 0x01, 0x00, 0x00, 0x00, 0x00, 0x00, 0x80, 0x3b,
  0x1a, 0x00, 0x00, 0x00, 0x53, 0x74, 0x61, 0x74, 0x65, 0x66, 0x75, 0x6c,
  0x50, 0x61, 0x72, 0x74, 0x69, 0x74, 0x69, 0x6f, 0x6e, 0x65, 0x64, 0x43,
  0x61, 0x6c, 0x6c, 0x3a, 0x30, 0x31, 0x00, 0x00, 0x02, 0x00, 0x00, 0x00,
  0x01, 0x00, 0x00, 0x00, 0x0a, 0x00, 0x00, 0x00, 0xb2, 0xfa, 0xff, 0xff,
  0x00, 0x00, 0x00, 0x01, 0x18, 0x00, 0x00, 0x00, 0x20, 0x00, 0x00, 0x00,
  0x3c, 0x00, 0x00, 0x00, 0x15, 0x00, 0x00, 0x00, 0x00, 0x00, 0x00, 0x09,
  0x70, 0x00, 0x00, 0x00, 0x02, 0x00, 0x00, 0x00, 0xff, 0xff, 0xff, 0xff,
  0x0a, 0x00, 0x00, 0x00, 0xd4, 0xf7, 0xff, 0xff, 0x08, 0x00, 0x00, 0x00,
  0x10, 0x00, 0x00, 0x00, 0x01, 0x00, 0x00, 0x00, 0x2c, 0x00, 0x00, 0x00,
  0x00, 0x00, 0x00, 0x00, 0x01, 0x00, 0x00, 0x00, 0x13, 0x7a, 0x9e, 0x3d,
  0x38, 0x00, 0x00, 0x00, 0x73, 0x65, 0x71, 0x75, 0x65, 0x6e, 0x74, 0x69,
  0x61, 0x6c, 0x5f, 0x37, 0x2f, 0x64, 0x65, 0x6e, 0x73, 0x65, 0x5f, 0x38,
  0x2f, 0x4d, 0x61, 0x74, 0x4d, 0x75, 0x6c, 0x3b, 0x73, 0x65, 0x71, 0x75,
  0x65, 0x6e, 0x74, 0x69, 0x61, 0x6c, 0x5f, 0x37, 0x2f, 0x64, 0x65, 0x6e,
  0x73, 0x65, 0x5f, 0x38, 0x2f, 0x42, 0x69, 0x61, 0x73, 0x41, 0x64, 0x64,
  0x00, 0x00, 0x00, 0x00, 0x02, 0x00, 0x00, 0x00, 0x01, 0x00, 0x00, 0x00,
  0x0a, 0x00, 0x00, 0x00, 0x4a, 0xfb, 0xff, 0xff, 0x00, 0x00, 0x00, 0x01,
  0x18, 0x00, 0x00, 0x00, 0x20, 0x00, 0x00, 0x00, 0x40, 0x00, 0x00, 0x00,
  0x14, 0x00, 0x00, 0x00, 0x00, 0x00, 0x00, 0x09, 0x58, 0x00, 0x00, 0x00,
  0x02, 0x00, 0x00, 0x00, 0xff, 0xff, 0xff, 0xff, 0x6c, 0x00, 0x00, 0x00,
  0x6c, 0xf8, 0xff, 0xff, 0x08, 0x00, 0x00, 0x00, 0x14, 0x00, 0x00, 0x00,
  0x01, 0x00, 0x00, 0x00, 0x80, 0xff, 0xff, 0xff, 0xff, 0xff, 0xff, 0xff,
  0x00, 0x00, 0x00, 0x00, 0x01, 0x00, 0x00, 0x00, 0x00, 0x58, 0x38, 0x3c,
  0x1e, 0x00, 0x00, 0x00, 0x73, 0x65, 0x71, 0x75, 0x65, 0x6e, 0x74, 0x69,
  0x61, 0x6c, 0x5f, 0x37, 0x2f, 0x66, 0x6c, 0x61, 0x74, 0x74, 0x65, 0x6e,
  0x5f, 0x37, 0x2f, 0x52, 0x65, 0x73, 0x68, 0x61, 0x70, 0x65, 0x00, 0x00,
  0x02, 0x00, 0x00, 0x00, 0x01, 0x00, 0x00, 0x00, 0x6c, 0x00, 0x00, 0x00,
  0xca, 0xfb, 0xff, 0xff, 0x00, 0x00, 0x00, 0x01, 0x18, 0x00, 0x00, 0x00,
  0x28, 0x00, 0x00, 0x00, 0x48, 0x00, 0x00, 0x00, 0x13, 0x00, 0x00, 0x00,
  0x00, 0x00, 0x00, 0x09, 0x68, 0x00, 0x00, 0x00, 0x04, 0x00, 0x00, 0x00,
  0xff, 0xff, 0xff, 0xff, 0x03, 0x00, 0x00, 0x00, 0x03, 0x00, 0x00, 0x00,
  0x0c, 0x00, 0x00, 0x00, 0xf4, 0xf8, 0xff, 0xff, 0x08, 0x00, 0x00, 0x00,
  0x14, 0x00, 0x00, 0x00, 0x01, 0x00, 0x00, 0x00, 0x80, 0xff, 0xff, 0xff,
  0xff, 0xff, 0xff, 0xff, 0x00, 0x00, 0x00, 0x00, 0x01, 0x00, 0x00, 0x00,
  0x00, 0x58, 0x38, 0x3c, 0x25, 0x00, 0x00, 0x00, 0x73, 0x65, 0x71, 0x75,
  0x65, 0x6e, 0x74, 0x69, 0x61, 0x6c, 0x5f, 0x37, 0x2f, 0x6d, 0x61, 0x78,
  0x5f, 0x70, 0x6f, 0x6f, 0x6c, 0x69, 0x6e, 0x67, 0x32, 0x64, 0x5f, 0x31,
  0x34, 0x2f, 0x4d, 0x61, 0x78, 0x50, 0x6f, 0x6f, 0x6c, 0x00, 0x00, 0x00,
  0x04, 0x00, 0x00, 0x00, 0x01, 0x00, 0x00, 0x00, 0x03, 0x00, 0x00, 0x00,
  0x03, 0x00, 0x00, 0x00, 0x0c, 0x00, 0x00, 0x00, 0x62, 0xfc, 0xff, 0xff,
  0x00, 0x00, 0x00, 0x01, 0x18, 0x00, 0x00, 0x00, 0x28, 0x00, 0x00, 0x00,
  0x48, 0x00, 0x00, 0x00, 0x12, 0x00, 0x00, 0x00, 0x00, 0x00, 0x00, 0x09,
  0x68, 0x00, 0x00, 0x00, 0x04, 0x00, 0x00, 0x00, 0xff, 0xff, 0xff, 0xff,
  0x06, 0x00, 0x00, 0x00, 0x06, 0x00, 0x00, 0x00, 0x0c, 0x00, 0x00, 0x00,
  0x8c, 0xf9, 0xff, 0xff, 0x08, 0x00, 0x00, 0x00, 0x14, 0x00, 0x00, 0x00,
  0x01, 0x00, 0x00, 0x00, 0x80, 0xff, 0xff, 0xff, 0xff, 0xff, 0xff, 0xff,
  0x00, 0x00, 0x00, 0x00, 0x01, 0x00, 0x00, 0x00, 0x00, 0x58, 0x38, 0x3c,
  0x25, 0x00, 0x00, 0x00, 0x73, 0x65, 0x71, 0x75, 0x65, 0x6e, 0x74, 0x69,
  0x61, 0x6c, 0x5f, 0x37, 0x2f, 0x6d, 0x61, 0x78, 0x5f, 0x70, 0x6f, 0x6f,
  0x6c, 0x69, 0x6e, 0x67, 0x32, 0x64, 0x5f, 0x31, 0x33, 0x2f, 0x4d, 0x61,
  0x78, 0x50, 0x6f, 0x6f, 0x6c, 0x00, 0x00, 0x00, 0x04, 0x00, 0x00, 0x00,
  0x01, 0x00, 0x00, 0x00, 0x06, 0x00, 0x00, 0x00, 0x06, 0x00, 0x00, 0x00,
  0x0c, 0x00, 0x00, 0x00, 0xfa, 0xfc, 0xff, 0xff, 0x00, 0x00, 0x00, 0x01,
  0x18, 0x00, 0x00, 0x00, 0x28, 0x00, 0x00, 0x00, 0x48, 0x00, 0x00, 0x00,
  0x11, 0x00, 0x00, 0x00, 0x00, 0x00, 0x00, 0x09, 0x68, 0x00, 0x00, 0x00,
  0x04, 0x00, 0x00, 0x00, 0xff, 0xff, 0xff, 0xff, 0x0d, 0x00, 0x00, 0x00,
  0x0d, 0x00, 0x00, 0x00, 0x0c, 0x00, 0x00, 0x00, 0x24, 0xfa, 0xff, 0xff,
  0x08, 0x00, 0x00, 0x00, 0x14, 0x00, 0x00, 0x00, 0x01, 0x00, 0x00, 0x00,
  0x80, 0xff, 0xff, 0xff, 0xff, 0xff, 0xff, 0xff, 0x00, 0x00, 0x00, 0x00,
  0x01, 0x00, 0x00, 0x00, 0x00, 0x58, 0x38, 0x3c, 0x25, 0x00, 0x00, 0x00,
  0x73, 0x65, 0x71, 0x75, 0x65, 0x6e, 0x74, 0x69, 0x61, 0x6c, 0x5f, 0x37,
  0x2f, 0x6d, 0x61, 0x78, 0x5f, 0x70, 0x6f, 0x6f, 0x6c, 0x69, 0x6e, 0x67,
  0x32, 0x64, 0x5f, 0x31, 0x32, 0x2f, 0x4d, 0x61, 0x78, 0x50, 0x6f, 0x6f,
  0x6c, 0x00, 0x00, 0x00, 0x04, 0x00, 0x00, 0x00, 0x01, 0x00, 0x00, 0x00,
  0x0d, 0x00, 0x00, 0x00, 0x0d, 0x00, 0x00, 0x00, 0x0c, 0x00, 0x00, 0x00,
  0x92, 0xfd, 0xff, 0xff, 0x00, 0x00, 0x00, 0x01, 0x18, 0x00, 0x00, 0x00,
  0x28, 0x00, 0x00, 0x00, 0x44, 0x00, 0x00, 0x00, 0x10, 0x00, 0x00, 0x00,
  0x00, 0x00, 0x00, 0x09, 0xc0, 0x00, 0x00, 0x00, 0x04, 0x00, 0x00, 0x00,
  0xff, 0xff, 0xff, 0xff, 0x1a, 0x00, 0x00, 0x00, 0x1a, 0x00, 0x00, 0x00,
  0x0c, 0x00, 0x00, 0x00, 0xbc, 0xfa, 0xff, 0xff, 0x08, 0x00, 0x00, 0x00,
  0x10, 0x00, 0x00, 0x00, 0x01, 0x00, 0x00, 0x00, 0x80, 0xff, 0xff, 0xff,
  0xff, 0xff, 0xff, 0xff, 0x01, 0x00, 0x00, 0x00, 0x00, 0x58, 0x38, 0x3c,
  0x83, 0x00, 0x00, 0x00, 0x73, 0x65, 0x71, 0x75, 0x65, 0x6e, 0x74, 0x69,
  0x61, 0x6c, 0x5f, 0x37, 0x2f, 0x63, 0x6f, 0x6e, 0x76, 0x32, 0x64, 0x5f,
  0x37, 0x2f, 0x52, 0x65, 0x6c, 0x75, 0x36, 0x3b, 0x73, 0x65, 0x71, 0x75,
  0x65, 0x6e, 0x74, 0x69, 0x61, 0x6c, 0x5f, 0x37, 0x2f, 0x63, 0x6f, 0x6e,
  0x76, 0x32, 0x64, 0x5f, 0x37, 0x2f, 0x42, 0x69, 0x61, 0x73, 0x41, 0x64,
  0x64, 0x3b, 0x73, 0x65, 0x71, 0x75, 0x65, 0x6e, 0x74, 0x69, 0x61, 0x6c,
  0x5f, 0x37, 0x2f, 0x63, 0x6f, 0x6e, 0x76, 0x32, 0x64, 0x5f, 0x37, 0x2f,
  0x43, 0x6f, 0x6e, 0x76, 0x32, 0x44, 0x3b, 0x73, 0x65, 0x71, 0x75, 0x65,
  0x6e, 0x74, 0x69, 0x61, 0x6c, 0x5f, 0x37, 0x2f, 0x63, 0x6f, 0x6e, 0x76,
  0x32, 0x64, 0x5f, 0x37, 0x2f, 0x42, 0x69, 0x61, 0x73, 0x41, 0x64, 0x64,
  0x2f, 0x52, 0x65, 0x61, 0x64, 0x56, 0x61, 0x72, 0x69, 0x61, 0x62, 0x6c,
  0x65, 0x4f, 0x70, 0x00, 0x04, 0x00, 0x00, 0x00, 0x01, 0x00, 0x00, 0x00,
  0x1a, 0x00, 0x00, 0x00, 0x1a, 0x00, 0x00, 0x00, 0x0c, 0x00, 0x00, 0x00,
  0x82, 0xfe, 0xff, 0xff, 0x00, 0x00, 0x00, 0x01, 0x18, 0x00, 0x00, 0x00,
  0x28, 0x00, 0x00, 0x00, 0x44, 0x00, 0x00, 0x00, 0x0f, 0x00, 0x00, 0x00,
  0x00, 0x00, 0x00, 0x09, 0x5c, 0x00, 0x00, 0x00, 0x04, 0x00, 0x00, 0x00,
  0xff, 0xff, 0xff, 0xff, 0x1c, 0x00, 0x00, 0x00, 0x1c, 0x00, 0x00, 0x00,
  0x01, 0x00, 0x00, 0x00, 0xac, 0xfb, 0xff, 0xff, 0x08, 0x00, 0x00, 0x00,
  0x10, 0x00, 0x00, 0x00, 0x01, 0x00, 0x00, 0x00, 0x80, 0xff, 0xff, 0xff,
  0xff, 0xff, 0xff, 0xff, 0x01, 0x00, 0x00, 0x00, 0x81, 0x80, 0x80, 0x3b,
  0x1e, 0x00, 0x00, 0x00, 0x73, 0x65, 0x71, 0x75, 0x65, 0x6e, 0x74, 0x69,
  0x61, 0x6c, 0x5f, 0x37, 0x2f, 0x72, 0x65, 0x73, 0x68, 0x61, 0x70, 0x65,
  0x5f, 0x36, 0x2f, 0x52, 0x65, 0x73, 0x68, 0x61, 0x70, 0x65, 0x00, 0x00,
  0x04, 0x00, 0x00, 0x00, 0x01, 0x00, 0x00, 0x00, 0x1c, 0x00, 0x00, 0x00,
  0x1c, 0x00, 0x00, 0x00, 0x01, 0x00, 0x00, 0x00, 0x52, 0xfa, 0xff, 0xff,
  0x00, 0x00, 0x00, 0x01, 0x14, 0x00, 0x00, 0x00, 0x14, 0x00, 0x00, 0x00,
  0x0e, 0x00, 0x00, 0x00, 0x00, 0x00, 0x00, 0x02, 0x34, 0x00, 0x00, 0x00,
  0xbc, 0xf9, 0xff, 0xff, 0x24, 0x00, 0x00, 0x00, 0x73, 0x65, 0x71, 0x75,
  0x65, 0x6e, 0x74, 0x69, 0x61, 0x6c, 0x5f, 0x37, 0x2f, 0x72, 0x65, 0x73,
  0x68, 0x61, 0x70, 0x65, 0x5f, 0x36, 0x2f, 0x52, 0x65, 0x73, 0x68, 0x61,
  0x70, 0x65, 0x2f, 0x73, 0x68, 0x61, 0x70, 0x65, 0x00, 0x00, 0x00, 0x00,
  0x01, 0x00, 0x00, 0x00, 0x04, 0x00, 0x00, 0x00, 0xa6, 0xfa, 0xff, 0xff,
  0x00, 0x00, 0x00, 0x01, 0x14, 0x00, 0x00, 0x00, 0x14, 0x00, 0x00, 0x00,
  0x0d, 0x00, 0x00, 0x00, 0x00, 0x00, 0x00, 0x02, 0x34, 0x00, 0x00, 0x00,
  0x10, 0xfa, 0xff, 0xff, 0x24, 0x00, 0x00, 0x00, 0x73, 0x65, 0x71, 0x75,
  0x65, 0x6e, 0x74, 0x69, 0x61, 0x6c, 0x5f, 0x37, 0x2f, 0x72, 0x65, 0x73,
  0x68, 0x61, 0x70, 0x65, 0x5f, 0x36, 0x2f, 0x73, 0x74, 0x72, 0x69, 0x64,
  0x65, 0x64, 0x5f, 0x73, 0x6c, 0x69, 0x63, 0x65, 0x00, 0x00, 0x00, 0x00,
  0x00, 0x00, 0x00, 0x00, 0xf6, 0xfa, 0xff, 0xff, 0x00, 0x00, 0x00, 0x01,
  0x14, 0x00, 0x00, 0x00, 0x14, 0x00, 0x00, 0x00, 0x0c, 0x00, 0x00, 0x00,
  0x00, 0x00, 0x00, 0x02, 0x2c, 0x00, 0x00, 0x00, 0x60, 0xfa, 0xff, 0xff,
  0x1c, 0x00, 0x00, 0x00, 0x73, 0x65, 0x71, 0x75, 0x65, 0x6e, 0x74, 0x69,
  0x61, 0x6c, 0x5f, 0x37, 0x2f, 0x72, 0x65, 0x73, 0x68, 0x61, 0x70, 0x65,
  0x5f, 0x36, 0x2f, 0x53, 0x68, 0x61, 0x70, 0x65, 0x00, 0x00, 0x00, 0x00,
  0x01, 0x00, 0x00, 0x00, 0x03, 0x00, 0x00, 0x00, 0x00, 0x00, 0x16, 0x00,
  0x20, 0x00, 0x1c, 0x00, 0x1b, 0x00, 0x14, 0x00, 0x10, 0x00, 0x0c, 0x00,
  0x00, 0x00, 0x00, 0x00, 0x08, 0x00, 0x07, 0x00, 0x16, 0x00, 0x00, 0x00,
  0x00, 0x00, 0x00, 0x01, 0x18, 0x00, 0x00, 0x00, 0x24, 0x00, 0x00, 0x00,
  0x40, 0x00, 0x00, 0x00, 0x0b, 0x00, 0x00, 0x00, 0x00, 0x00, 0x00, 0x09,
  0x48, 0x00, 0x00, 0x00, 0x03, 0x00, 0x00, 0x00, 0xff, 0xff, 0xff, 0xff,
  0x1c, 0x00, 0x00, 0x00, 0x1c, 0x00, 0x00, 0x00, 0x3c, 0xfd, 0xff, 0xff,
  0x08, 0x00, 0x00, 0x00, 0x10, 0x00, 0x00, 0x00, 0x01, 0x00, 0x00, 0x00,
  0x80, 0xff, 0xff, 0xff, 0xff, 0xff, 0xff, 0xff, 0x01, 0x00, 0x00, 0x00,
  0x81, 0x80, 0x80, 0x3b, 0x0c, 0x00, 0x00, 0x00, 0x74, 0x66, 0x6c, 0x2e,
  0x71, 0x75, 0x61, 0x6e, 0x74, 0x69, 0x7a, 0x65, 0x00, 0x00, 0x00, 0x00,
  0x03, 0x00, 0x00, 0x00, 0x01, 0x00, 0x00, 0x00, 0x1c, 0x00, 0x00, 0x00,
  0x1c, 0x00, 0x00, 0x00, 0xce, 0xfb, 0xff, 0xff, 0x00, 0x00, 0x00, 0x01,
  0x14, 0x00, 0x00, 0x00, 0xb4, 0x00, 0x00, 0x00, 0x0a, 0x00, 0x00, 0x00,
  0x00, 0x00, 0x00, 0x09, 0xcc, 0x00, 0x00, 0x00, 0x9c, 0xfd, 0xff, 0xff,
  0x08, 0x00, 0x00, 0x00, 0x68, 0x00, 0x00, 0x00, 0x0c, 0x00, 0x00, 0x00,
  0x00, 0x00, 0x00, 0x00, 0x00, 0x00, 0x00, 0x00, 0x00, 0x00, 0x00, 0x00,
  0x00, 0x00, 0x00, 0x00, 0x00, 0x00, 0x00, 0x00, 0x00, 0x00, 0x00, 0x00,
  0x00, 0x00, 0x00, 0x00, 0x00, 0x00, 0x00, 0x00, 0x00, 0x00, 0x00, 0x00,
  0x00, 0x00, 0x00, 0x00, 0x00, 0x00, 0x00, 0x00, 0x00, 0x00, 0x00, 0x00,
  0x00, 0x00, 0x00, 0x00, 0x00, 0x00, 0x00, 0x00, 0x00, 0x00, 0x00, 0x00,
  0x00, 0x00, 0x00, 0x00, 0x00, 0x00, 0x00, 0x00, 0x00, 0x00, 0x00, 0x00,
  0x00, 0x00, 0x00, 0x00, 0x00, 0x00, 0x00, 0x00, 0x00, 0x00, 0x00, 0x00,
  0x00, 0x00, 0x00, 0x00, 0x00, 0x00, 0x00, 0x00, 0x00, 0x00, 0x00, 0x00,
  0x0c, 0x00, 0x00, 0x00, 0x29, 0xa6, 0xeb, 0x3b, 0x2a, 0x85, 0xd9, 0x3b,
  0x21, 0xe1, 0x24, 0x3b, 0x85, 0x8a, 0xe9, 0x3b, 0xed, 0x90, 0x6d, 0x3b,
  0x12, 0x94, 0x8e, 0x3b, 0x84, 0xb5, 0x93, 0x3b, 0x9d, 0x7d, 0xf7, 0x3b,
  0x7e, 0x14, 0x09, 0x3c, 0xca, 0x2f, 0xbc, 0x3b, 0x7a, 0x70, 0x0f, 0x3c,
  0x73, 0x67, 0xbd, 0x3b, 0x1c, 0x00, 0x00, 0x00, 0x73, 0x65, 0x71, 0x75,
  0x65, 0x6e, 0x74, 0x69, 0x61, 0x6c, 0x5f, 0x37, 0x2f, 0x63, 0x6f, 0x6e,
  0x76, 0x32, 0x64, 0x5f, 0x37, 0x2f, 0x43, 0x6f, 0x6e, 0x76, 0x32, 0x44,
  0x00, 0x00, 0x00, 0x00, 0x04, 0x00, 0x00, 0x00, 0x0c, 0x00, 0x00, 0x00,
  0x03, 0x00, 0x00, 0x00, 0x03, 0x00, 0x00, 0x00, 0x01, 0x00, 0x00, 0x00,
  0xc6, 0xfc, 0xff, 0xff, 0x00, 0x00, 0x00, 0x01, 0x14, 0x00, 0x00, 0x00,
  0xb8, 0x00, 0x00, 0x00, 0x09, 0x00, 0x00, 0x00, 0x00, 0x00, 0x00, 0x02,
  0xe0, 0x00, 0x00, 0x00, 0x94, 0xfe, 0xff, 0xff, 0x08, 0x00, 0x00, 0x00,
  0x6c, 0x00, 0x00, 0x00, 0x0c, 0x00, 0x00, 0x00, 0x00, 0x00, 0x00, 0x00,
  0x00, 0x00, 0x00, 0x00, 0x00, 0x00, 0x00, 0x00, 0x00, 0x00, 0x00, 0x00,
  0x00, 0x00, 0x00, 0x00, 0x00, 0x00, 0x00, 0x00, 0x00, 0x00, 0x00, 0x00,
  0x00, 0x00, 0x00, 0x00, 0x00, 0x00, 0x00, 0x00, 0x00, 0x00, 0x00, 0x00,
  0x00, 0x00, 0x00, 0x00, 0x00, 0x00, 0x00, 0x00, 0x00, 0x00, 0x00, 0x00,
  0x00, 0x00, 0x00, 0x00, 0x00, 0x00, 0x00, 0x00, 0x00, 0x00, 0x00, 0x00,
  0x00, 0x00, 0x00, 0x00, 0x00, 0x00, 0x00, 0x00, 0x00, 0x00, 0x00, 0x00,
  0x00, 0x00, 0x00, 0x00, 0x00, 0x00, 0x00, 0x00, 0x00, 0x00, 0x00, 0x00,
  0x00, 0x00, 0x00, 0x00, 0x00, 0x00, 0x00, 0x00, 0x00, 0x00, 0x00, 0x00,
  0x0c, 0x00, 0x00, 0x00, 0xbd, 0x92, 0xec, 0x37, 0x8a, 0x5f, 0xda, 0x37,
  0xa8, 0x86, 0x25, 0x37, 0xfb, 0x74, 0xea, 0x37, 0x6d, 0x7f, 0x6e, 0x37,
  0x36, 0x23, 0x8f, 0x37, 0xce, 0x49, 0x94, 0x37, 0x14, 0x76, 0xf8, 0x37,
  0x1d, 0x9e, 0x09, 0x38, 0xb7, 0xec, 0xbc, 0x37, 0x7b, 0x00, 0x10, 0x38,
  0x99, 0x25, 0xbe, 0x37, 0x2c, 0x00, 0x00, 0x00, 0x73, 0x65, 0x71, 0x75,
  0x65, 0x6e, 0x74, 0x69, 0x61, 0x6c, 0x5f, 0x37, 0x2f, 0x63, 0x6f, 0x6e,
  0x76, 0x32, 0x64, 0x5f, 0x37, 0x2f, 0x42, 0x69, 0x61, 0x73, 0x41, 0x64,
  0x64, 0x2f, 0x52, 0x65, 0x61, 0x64, 0x56, 0x61, 0x72, 0x69, 0x61, 0x62,
  0x6c, 0x65, 0x4f, 0x70, 0x00, 0x00, 0x00, 0x00, 0x01, 0x00, 0x00, 0x00,
  0x0c, 0x00, 0x00, 0x00, 0xc6, 0xfd, 0xff, 0xff, 0x00, 0x00, 0x00, 0x01,
  0x14, 0x00, 0x00, 0x00, 0x34, 0x00, 0x00, 0x00, 0x08, 0x00, 0x00, 0x00,
  0x00, 0x00, 0x00, 0x09, 0x48, 0x00, 0x00, 0x00, 0x94, 0xff, 0xff, 0xff,
  0x08, 0x00, 0x00, 0x00, 0x14, 0x00, 0x00, 0x00, 0x01, 0x00, 0x00, 0x00,
  0x00, 0x00, 0x00, 0x00, 0x00, 0x00, 0x00, 0x00, 0x00, 0x00, 0x00, 0x00,
  0x01, 0x00, 0x00, 0x00, 0x83, 0x0c, 0xfb, 0x3b, 0x1b, 0x00, 0x00, 0x00,
  0x73, 0x65, 0x71, 0x75, 0x65, 0x6e, 0x74, 0x69, 0x61, 0x6c, 0x5f, 0x37,
  0x2f, 0x64, 0x65, 0x6e, 0x73, 0x65, 0x5f, 0x38, 0x2f, 0x4d, 0x61, 0x74,
  0x4d, 0x75, 0x6c, 0x00, 0x02, 0x00, 0x00, 0x00, 0x0a, 0x00, 0x00, 0x00,
  0x6c, 0x00, 0x00, 0x00, 0x32, 0xfe, 0xff, 0xff, 0x00, 0x00, 0x00, 0x01,
  0x20, 0x00, 0x00, 0x00, 0x40, 0x00, 0x00, 0x00, 0x07, 0x00, 0x00, 0x00,
  0x00, 0x00, 0x00, 0x02, 0x64, 0x00, 0x00, 0x00, 0x0c, 0x00, 0x0c, 0x00,
  0x00, 0x00, 0x00, 0x00, 0x08, 0x00, 0x04, 0x00, 0x0c, 0x00, 0x00, 0x00,
  0x08, 0x00, 0x00, 0x00, 0x14, 0x00, 0x00, 0x00, 0x01, 0x00, 0x00, 0x00,
  0x00, 0x00, 0x00, 0x00, 0x00, 0x00, 0x00, 0x00, 0x00, 0x00, 0x00, 0x00,
  0x01, 0x00, 0x00, 0x00, 0x4a, 0xc7, 0xb4, 0x38, 0x2b, 0x00, 0x00, 0x00,
  0x73, 0x65, 0x71, 0x75, 0x65, 0x6e, 0x74, 0x69, 0x61, 0x6c, 0x5f, 0x37,
  0x2f, 0x64, 0x65, 0x6e, 0x73, 0x65, 0x5f, 0x38, 0x2f, 0x42, 0x69, 0x61,
  0x73, 0x41, 0x64, 0x64, 0x2f, 0x52, 0x65, 0x61, 0x64, 0x56, 0x61, 0x72,
  0x69, 0x61, 0x62, 0x6c, 0x65, 0x4f, 0x70, 0x00, 0x01, 0x00, 0x00, 0x00,
  0x0a, 0x00, 0x00, 0x00, 0xb6, 0xfe, 0xff, 0xff, 0x00, 0x00, 0x00, 0x01,
  0x14, 0x00, 0x00, 0x00, 0x14, 0x00, 0x00, 0x00, 0x06, 0x00, 0x00, 0x00,
  0x00, 0x00, 0x00, 0x02, 0x2c, 0x00, 0x00, 0x00, 0x20, 0xfe, 0xff, 0xff,
  0x1c, 0x00, 0x00, 0x00, 0x73, 0x65, 0x71, 0x75, 0x65, 0x6e, 0x74, 0x69,
  0x61, 0x6c, 0x5f, 0x37, 0x2f, 0x66, 0x6c, 0x61, 0x74, 0x74, 0x65, 0x6e,
  0x5f, 0x37, 0x2f, 0x43, 0x6f, 0x6e, 0x73, 0x74, 0x00, 0x00, 0x00, 0x00,
  0x01, 0x00, 0x00, 0x00, 0x02, 0x00, 0x00, 0x00, 0x02, 0xff, 0xff, 0xff,
  0x00, 0x00, 0x00, 0x01, 0x14, 0x00, 0x00, 0x00, 0x14, 0x00, 0x00, 0x00,
  0x03, 0x00, 0x00, 0x00, 0x00, 0x00, 0x00, 0x02, 0x34, 0x00, 0x00, 0x00,
  0x6c, 0xfe, 0xff, 0xff, 0x26, 0x00, 0x00, 0x00, 0x73, 0x65, 0x71, 0x75,
  0x65, 0x6e, 0x74, 0x69, 0x61, 0x6c, 0x5f, 0x37, 0x2f, 0x72, 0x65, 0x73,
  0x68, 0x61, 0x70, 0x65, 0x5f, 0x36, 0x2f, 0x52, 0x65, 0x73, 0x68, 0x61,
  0x70, 0x65, 0x2f, 0x73, 0x68, 0x61, 0x70, 0x65, 0x2f, 0x33, 0x00, 0x00,
  0x00, 0x00, 0x00, 0x00, 0x52, 0xff, 0xff, 0xff, 0x00, 0x00, 0x00, 0x01,
  0x14, 0x00, 0x00, 0x00, 0x14, 0x00, 0x00, 0x00, 0x04, 0x00, 0x00, 0x00,
  0x00, 0x00, 0x00, 0x02, 0x34, 0x00, 0x00, 0x00, 0xbc, 0xfe, 0xff, 0xff,
  0x26, 0x00, 0x00, 0x00, 0x73, 0x65, 0x71, 0x75, 0x65, 0x6e, 0x74, 0x69,
  0x61, 0x6c, 0x5f, 0x37, 0x2f, 0x72, 0x65, 0x73, 0x68, 0x61, 0x70, 0x65,
  0x5f, 0x36, 0x2f, 0x52, 0x65, 0x73, 0x68, 0x61, 0x70, 0x65, 0x2f, 0x73,
  0x68, 0x61, 0x70, 0x65, 0x2f, 0x31, 0x00, 0x00, 0x00, 0x00, 0x00, 0x00,
  0xa2, 0xff, 0xff, 0xff, 0x00, 0x00, 0x00, 0x01, 0x14, 0x00, 0x00, 0x00,
  0x14, 0x00, 0x00, 0x00, 0x03, 0x00, 0x00, 0x00, 0x00, 0x00, 0x00, 0x02,
  0x3c, 0x00, 0x00, 0x00, 0x0c, 0xff, 0xff, 0xff, 0x2c, 0x00, 0x00, 0x00,
  0x73, 0x65, 0x71, 0x75, 0x65, 0x6e, 0x74, 0x69, 0x61, 0x6c, 0x5f, 0x37,
  0x2f, 0x72, 0x65, 0x73, 0x68, 0x61, 0x70, 0x65, 0x5f, 0x36, 0x2f, 0x73,
  0x74, 0x72, 0x69, 0x64, 0x65, 0x64, 0x5f, 0x73, 0x6c, 0x69, 0x63, 0x65,
  0x2f, 0x73, 0x74, 0x61, 0x63, 0x6b, 0x5f, 0x31, 0x00, 0x00, 0x00, 0x00,
  0x01, 0x00, 0x00, 0x00, 0x01, 0x00, 0x00, 0x00, 0x00, 0x00, 0x16, 0x00,
  0x1c, 0x00, 0x18, 0x00, 0x17, 0x00, 0x10, 0x00, 0x0c, 0x00, 0x08, 0x00,
  0x00, 0x00, 0x00, 0x00, 0x00, 0x00, 0x07, 0x00, 0x16, 0x00, 0x00, 0x00,
  0x00, 0x00, 0x00, 0x01, 0x14, 0x00, 0x00, 0x00, 0x14, 0x00, 0x00, 0x00,
  0x02, 0x00, 0x00, 0x00, 0x00, 0x00, 0x00, 0x02, 0x38, 0x00, 0x00, 0x00,
  0x80, 0xff, 0xff, 0xff, 0x2a, 0x00, 0x00, 0x00, 0x73, 0x65, 0x71, 0x75,
  0x65, 0x6e, 0x74, 0x69, 0x61, 0x6c, 0x5f, 0x37, 0x2f, 0x72, 0x65, 0x73,
  0x68, 0x61, 0x70, 0x65, 0x5f, 0x36, 0x2f, 0x73, 0x74, 0x72, 0x69, 0x64,
  0x65, 0x64, 0x5f, 0x73, 0x6c, 0x69, 0x63, 0x65, 0x2f, 0x73, 0x74, 0x61,
  0x63, 0x6b, 0x00, 0x00, 0x01, 0x00, 0x00, 0x00, 0x01, 0x00, 0x00, 0x00,
  0x00, 0x00, 0x16, 0x00, 0x1c, 0x00, 0x18, 0x00, 0x00, 0x00, 0x14, 0x00,
  0x10, 0x00, 0x0c, 0x00, 0x00, 0x00, 0x00, 0x00, 0x08, 0x00, 0x07, 0x00,
  0x16, 0x00, 0x00, 0x00, 0x00, 0x00, 0x00, 0x01, 0x14, 0x00, 0x00, 0x00,
  0x24, 0x00, 0x00, 0x00, 0x24, 0x00, 0x00, 0x00, 0x01, 0x00, 0x00, 0x00,
  0x3c, 0x00, 0x00, 0x00, 0x03, 0x00, 0x00, 0x00, 0xff, 0xff, 0xff, 0xff,
  0x1c, 0x00, 0x00, 0x00, 0x1c, 0x00, 0x00, 0x00, 0x04, 0x00, 0x04, 0x00,
  0x04, 0x00, 0x00, 0x00, 0x19, 0x00, 0x00, 0x00, 0x73, 0x65, 0x72, 0x76,
  0x69, 0x6e, 0x67, 0x5f, 0x64, 0x65, 0x66, 0x61, 0x75, 0x6c, 0x74, 0x5f,
  0x69, 0x6e, 0x70, 0x75, 0x74, 0x5f, 0x37, 0x3a, 0x30, 0x00, 0x00, 0x00,
  0x03, 0x00, 0x00, 0x00, 0x01, 0x00, 0x00, 0x00, 0x1c, 0x00, 0x00, 0x00,
  0x1c, 0x00, 0x00, 0x00, 0x0a, 0x00, 0x00, 0x00, 0xc0, 0x00, 0x00, 0x00,
  0xa4, 0x00, 0x00, 0x00, 0x94, 0x00, 0x00, 0x00, 0x84, 0x00, 0x00, 0x00,
  0x74, 0x00, 0x00, 0x00, 0x60, 0x00, 0x00, 0x00, 0x40, 0x00, 0x00, 0x00,
  0x2c, 0x00, 0x00, 0x00, 0x18, 0x00, 0x00, 0x00, 0x04, 0x00, 0x00, 0x00,
  0xc0, 0xff, 0xff, 0xff, 0x06, 0x00, 0x00, 0x00, 0x02, 0x00, 0x00, 0x00,
  0x00, 0x00, 0x00, 0x06, 0xd0, 0xff, 0xff, 0xff, 0x19, 0x00, 0x00, 0x00,
  0x02, 0x00, 0x00, 0x00, 0x00, 0x00, 0x00, 0x19, 0xe0, 0xff, 0xff, 0xff,
  0x09, 0x00, 0x00, 0x00, 0x04, 0x00, 0x00, 0x00, 0x00, 0x00, 0x00, 0x09,
  0xf0, 0xff, 0xff, 0xff, 0x11, 0x00, 0x00, 0x00, 0x02, 0x00, 0x00, 0x00,
  0x00, 0x00, 0x00, 0x11, 0x0c, 0x00, 0x10, 0x00, 0x0f, 0x00, 0x00, 0x00,
  0x08, 0x00, 0x04, 0x00, 0x0c, 0x00, 0x00, 0x00, 0x03, 0x00, 0x00, 0x00,
  0x03, 0x00, 0x00, 0x00, 0x00, 0x00, 0x00, 0x03, 0xd0, 0xff, 0xff, 0xff,
  0x16, 0x00, 0x00, 0x00, 0x00, 0x00, 0x00, 0x16, 0xdc, 0xff, 0xff, 0xff,
  0x53, 0x00, 0x00, 0x00, 0x00, 0x00, 0x00, 0x53, 0xe8, 0xff, 0xff, 0xff,
  0x2d, 0x00, 0x00, 0x00, 0x00, 0x00, 0x00, 0x2d, 0xf4, 0xff, 0xff, 0xff,
  0x4d, 0x00, 0x00, 0x00, 0x00, 0x00, 0x00, 0x4d, 0x0c, 0x00, 0x0c, 0x00,
  0x0b, 0x00, 0x00, 0x00, 0x00, 0x00, 0x04, 0x00, 0x0c, 0x00, 0x00, 0x00,
  0x72, 0x00, 0x00, 0x00, 0x00, 0x00, 0x00, 0x72
};
unsigned int model_tflite_len = 6176;
#endif